/* Copyright 2020 The TensorFlow Authors. All Rights Reserved.

Licensed under the Apache License, Version 2.0 (the "License");
you may not use this file except in compliance with the License.
You may obtain a copy of the License at

    http://www.apache.org/licenses/LICENSE-2.0

Unless required by applicable law or agreed to in writing, software
distributed under the License is distributed on an "AS IS" BASIS,
WITHOUT WARRANTIES OR CONDITIONS OF ANY KIND, either express or implied.
See the License for the specific language governing permissions and
limitations under the License.
==============================================================================*/

// Automatically created from a TensorFlow Lite flatbuffer using the command:
// xxd -i model.tflite > model.cc

// This is a standard TensorFlow Lite model file that has been converted into a
// C data array, so it can be easily compiled into a binary for devices that
// don't have a file system.

#include "model.h"

// Keep model aligned to 8 bytes to guarantee aligned 64-bit accesses.
alignas(8) const unsigned char g_model[] = {
  0x1c, 0x00, 0x00, 0x00, 0x54, 0x46, 0x4c, 0x33, 0x14, 0x00, 0x20, 0x00,
  0x04, 0x00, 0x08, 0x00, 0x0c, 0x00, 0x10, 0x00, 0x14, 0x00, 0x00, 0x00,
  0x18, 0x00, 0x1c, 0x00, 0x14, 0x00, 0x00, 0x00, 0x03, 0x00, 0x00, 0x00,
  0x18, 0x00, 0x00, 0x00, 0x20, 0x00, 0x00, 0x00, 0x40, 0x01, 0x00, 0x00,
  0x20, 0x00, 0x00, 0x00, 0xe8, 0x00, 0x00, 0x00, 0x50, 0x00, 0x00, 0x00,
  0x02, 0x00, 0x00, 0x00, 0xd4, 0x03, 0x00, 0x00, 0x00, 0x02, 0x00, 0x00,
  0x01, 0x00, 0x00, 0x00, 0x44, 0x01, 0x00, 0x00, 0x0d, 0x00, 0x00, 0x00,
  0xc8, 0x10, 0x00, 0x00, 0xc4, 0x10, 0x00, 0x00, 0xf8, 0x0f, 0x00, 0x00,
  0x64, 0x0f, 0x00, 0x00, 0xb8, 0x0e, 0x00, 0x00, 0x00, 0x0c, 0x00, 0x00,
  0xd0, 0x04, 0x00, 0x00, 0x00, 0x04, 0x00, 0x00, 0xa8, 0x10, 0x00, 0x00,
  0xa4, 0x10, 0x00, 0x00, 0xa0, 0x10, 0x00, 0x00, 0x9c, 0x10, 0x00, 0x00,
  0xcc, 0x00, 0x00, 0x00, 0x01, 0x00, 0x00, 0x00, 0x10, 0x00, 0x00, 0x00,
  0x0c, 0x00, 0x14, 0x00, 0x10, 0x00, 0x0c, 0x00, 0x08, 0x00, 0x04, 0x00,
  0x0c, 0x00, 0x00, 0x00, 0x10, 0x00, 0x00, 0x00, 0x18, 0x00, 0x00, 0x00,
  0x28, 0x00, 0x00, 0x00, 0x2c, 0x00, 0x00, 0x00, 0x05, 0x00, 0x00, 0x00,
  0x73, 0x65, 0x72, 0x76, 0x65, 0x00, 0x00, 0x00, 0x0f, 0x00, 0x00, 0x00,
  0x73, 0x65, 0x72, 0x76, 0x69, 0x6e, 0x67, 0x5f, 0x64, 0x65, 0x66, 0x61,
  0x75, 0x6c, 0x74, 0x00, 0x01, 0x00, 0x00, 0x00, 0x14, 0x00, 0x00, 0x00,
  0x01, 0x00, 0x00, 0x00, 0x24, 0x00, 0x00, 0x00, 0x08, 0x00, 0x0c, 0x00,
  0x08, 0x00, 0x04, 0x00, 0x08, 0x00, 0x00, 0x00, 0x0a, 0x00, 0x00, 0x00,
  0x04, 0x00, 0x00, 0x00, 0x07, 0x00, 0x00, 0x00, 0x64, 0x65, 0x6e, 0x73,
  0x65, 0x5f, 0x38, 0x00, 0xb2, 0xf0, 0xff, 0xff, 0x04, 0x00, 0x00, 0x00,
  0x0d, 0x00, 0x00, 0x00, 0x64, 0x65, 0x6e, 0x73, 0x65, 0x5f, 0x36, 0x5f,
  0x69, 0x6e, 0x70, 0x75, 0x74, 0x00, 0x00, 0x00, 0x01, 0x00, 0x00, 0x00,
  0x0c, 0x00, 0x00, 0x00, 0x08, 0x00, 0x0c, 0x00, 0x04, 0x00, 0x08, 0x00,
  0x08, 0x00, 0x00, 0x00, 0x08, 0x00, 0x00, 0x00, 0x0c, 0x00, 0x00, 0x00,
  0x13, 0x00, 0x00, 0x00, 0x6d, 0x69, 0x6e, 0x5f, 0x72, 0x75, 0x6e, 0x74,
  0x69, 0x6d, 0x65, 0x5f, 0x76, 0x65, 0x72, 0x73, 0x69, 0x6f, 0x6e, 0x00,
  0x02, 0xf1, 0xff, 0xff, 0x04, 0x00, 0x00, 0x00, 0x10, 0x00, 0x00, 0x00,
  0x31, 0x2e, 0x35, 0x2e, 0x30, 0x00, 0x00, 0x00, 0x00, 0x00, 0x00, 0x00,
  0x00, 0x00, 0x00, 0x00, 0x0f, 0x00, 0x00, 0x00, 0x4d, 0x4c, 0x49, 0x52,
  0x20, 0x43, 0x6f, 0x6e, 0x76, 0x65, 0x72, 0x74, 0x65, 0x64, 0x2e, 0x00,
  0x00, 0x00, 0x0e, 0x00, 0x18, 0x00, 0x04, 0x00, 0x08, 0x00, 0x0c, 0x00,
  0x10, 0x00, 0x14, 0x00, 0x0e, 0x00, 0x00, 0x00, 0x14, 0x00, 0x00, 0x00,
  0x40, 0x00, 0x00, 0x00, 0x44, 0x00, 0x00, 0x00, 0x48, 0x00, 0x00, 0x00,
  0x58, 0x00, 0x00, 0x00, 0x0b, 0x00, 0x00, 0x00, 0x14, 0x0f, 0x00, 0x00,
  0xc8, 0x0e, 0x00, 0x00, 0x60, 0x0e, 0x00, 0x00, 0xd8, 0x0d, 0x00, 0x00,
  0x28, 0x0d, 0x00, 0x00, 0x70, 0x0a, 0x00, 0x00, 0x40, 0x03, 0x00, 0x00,
  0x5c, 0x02, 0x00, 0x00, 0xa0, 0x01, 0x00, 0x00, 0x08, 0x01, 0x00, 0x00,
  0x80, 0x00, 0x00, 0x00, 0x01, 0x00, 0x00, 0x00, 0x00, 0x00, 0x00, 0x00,
  0x01, 0x00, 0x00, 0x00, 0x0a, 0x00, 0x00, 0x00, 0x04, 0x00, 0x00, 0x00,
  0xe0, 0x01, 0x00, 0x00, 0x48, 0x01, 0x00, 0x00, 0xb4, 0x00, 0x00, 0x00,
  0x1c, 0x00, 0x00, 0x00, 0x04, 0x00, 0x00, 0x00, 0x6d, 0x61, 0x69, 0x6e,
  0x00, 0x00, 0x0e, 0x00, 0x18, 0x00, 0x08, 0x00, 0x0c, 0x00, 0x10, 0x00,
  0x07, 0x00, 0x14, 0x00, 0x0e, 0x00, 0x00, 0x00, 0x00, 0x00, 0x00, 0x09,
  0x01, 0x00, 0x00, 0x00, 0x1c, 0x00, 0x00, 0x00, 0x10, 0x00, 0x00, 0x00,
  0x04, 0x00, 0x00, 0x00, 0xde, 0xf1, 0xff, 0xff, 0x00, 0x00, 0x80, 0x3f,
  0x01, 0x00, 0x00, 0x00, 0x0a, 0x00, 0x00, 0x00, 0x01, 0x00, 0x00, 0x00,
  0x09, 0x00, 0x00, 0x00, 0x3c, 0xfe, 0xff, 0xff, 0x19, 0x00, 0x00, 0x00,
  0x00, 0x00, 0x00, 0x19, 0x01, 0x00, 0x00, 0x00, 0xa8, 0xf1, 0xff, 0xff,
  0x14, 0x00, 0x00, 0x00, 0x0b, 0x00, 0x00, 0x00, 0x18, 0x00, 0x00, 0x00,
  0x40, 0x00, 0x00, 0x00, 0x30, 0x00, 0x00, 0x00, 0x02, 0x00, 0x00, 0x00,
  0x01, 0x00, 0x00, 0x00, 0x02, 0x00, 0x00, 0x00, 0x19, 0x00, 0x00, 0x00,
  0x53, 0x74, 0x61, 0x74, 0x65, 0x66, 0x75, 0x6c, 0x50, 0x61, 0x72, 0x74,
  0x69, 0x74, 0x69, 0x6f, 0x6e, 0x65, 0x64, 0x43, 0x61, 0x6c, 0x6c, 0x3a,
  0x30, 0x00, 0x00, 0x00, 0x02, 0x00, 0x00, 0x00, 0xff, 0xff, 0xff, 0xff,
  0x02, 0x00, 0x00, 0x00, 0x8c, 0xf1, 0xff, 0xff, 0x7e, 0xff, 0xff, 0xff,
  0x00, 0x00, 0x00, 0x08, 0x18, 0x00, 0x00, 0x00, 0x0c, 0x00, 0x00, 0x00,
  0x04, 0x00, 0x00, 0x00, 0xa4, 0xf1, 0xff, 0xff, 0x01, 0x00, 0x00, 0x00,
  0x09, 0x00, 0x00, 0x00, 0x03, 0x00, 0x00, 0x00, 0x08, 0x00, 0x00, 0x00,
  0x06, 0x00, 0x00, 0x00, 0x01, 0x00, 0x00, 0x00, 0x2c, 0xf2, 0xff, 0xff,
  0x14, 0x00, 0x00, 0x00, 0x0a, 0x00, 0x00, 0x00, 0x18, 0x00, 0x00, 0x00,
  0x3c, 0x00, 0x00, 0x00, 0x2c, 0x00, 0x00, 0x00, 0x02, 0x00, 0x00, 0x00,
  0x01, 0x00, 0x00, 0x00, 0x02, 0x00, 0x00, 0x00, 0x14, 0x00, 0x00, 0x00,
  0x74, 0x66, 0x6c, 0x2e, 0x66, 0x75, 0x6c, 0x6c, 0x79, 0x5f, 0x63, 0x6f,
  0x6e, 0x6e, 0x65, 0x63, 0x74, 0x65, 0x64, 0x32, 0x00, 0x00, 0x00, 0x00,
  0x02, 0x00, 0x00, 0x00, 0xff, 0xff, 0xff, 0xff, 0x02, 0x00, 0x00, 0x00,
  0xe0, 0xf2, 0xff, 0xff, 0x00, 0x00, 0x0e, 0x00, 0x14, 0x00, 0x00, 0x00,
  0x08, 0x00, 0x0c, 0x00, 0x07, 0x00, 0x10, 0x00, 0x0e, 0x00, 0x00, 0x00,
  0x00, 0x00, 0x00, 0x08, 0x1c, 0x00, 0x00, 0x00, 0x10, 0x00, 0x00, 0x00,
  0x04, 0x00, 0x00, 0x00, 0x6a, 0xff, 0xff, 0xff, 0x00, 0x00, 0x00, 0x01,
  0x01, 0x00, 0x00, 0x00, 0x08, 0x00, 0x00, 0x00, 0x03, 0x00, 0x00, 0x00,
  0x07, 0x00, 0x00, 0x00, 0x05, 0x00, 0x00, 0x00, 0x02, 0x00, 0x00, 0x00,
  0xc0, 0xf2, 0xff, 0xff, 0x14, 0x00, 0x00, 0x00, 0x09, 0x00, 0x00, 0x00,
  0x18, 0x00, 0x00, 0x00, 0x3c, 0x00, 0x00, 0x00, 0x2c, 0x00, 0x00, 0x00,
  0x02, 0x00, 0x00, 0x00, 0x01, 0x00, 0x00, 0x00, 0x11, 0x00, 0x00, 0x00,
  0x14, 0x00, 0x00, 0x00, 0x74, 0x66, 0x6c, 0x2e, 0x66, 0x75, 0x6c, 0x6c,
  0x79, 0x5f, 0x63, 0x6f, 0x6e, 0x6e, 0x65, 0x63, 0x74, 0x65, 0x64, 0x31,
  0x00, 0x00, 0x00, 0x00, 0x02, 0x00, 0x00, 0x00, 0xff, 0xff, 0xff, 0xff,
  0x11, 0x00, 0x00, 0x00, 0x74, 0xf3, 0xff, 0xff, 0x00, 0x00, 0x0e, 0x00,
  0x16, 0x00, 0x00, 0x00, 0x08, 0x00, 0x0c, 0x00, 0x07, 0x00, 0x10, 0x00,
  0x0e, 0x00, 0x00, 0x00, 0x00, 0x00, 0x00, 0x08, 0x24, 0x00, 0x00, 0x00,
  0x18, 0x00, 0x00, 0x00, 0x0c, 0x00, 0x00, 0x00, 0x00, 0x00, 0x06, 0x00,
  0x08, 0x00, 0x07, 0x00, 0x06, 0x00, 0x00, 0x00, 0x00, 0x00, 0x00, 0x01,
  0x01, 0x00, 0x00, 0x00, 0x07, 0x00, 0x00, 0x00, 0x03, 0x00, 0x00, 0x00,
  0x00, 0x00, 0x00, 0x00, 0x04, 0x00, 0x00, 0x00, 0x03, 0x00, 0x00, 0x00,
  0x0c, 0x00, 0x10, 0x00, 0x0b, 0x00, 0x00, 0x00, 0x0c, 0x00, 0x04, 0x00,
  0x0c, 0x00, 0x00, 0x00, 0x09, 0x00, 0x00, 0x00, 0x00, 0x00, 0x00, 0x09,
  0x01, 0x00, 0x00, 0x00, 0x78, 0xf3, 0xff, 0xff, 0x14, 0x00, 0x00, 0x00,
  0x08, 0x00, 0x00, 0x00, 0x18, 0x00, 0x00, 0x00, 0x38, 0x00, 0x00, 0x00,
  0x28, 0x00, 0x00, 0x00, 0x02, 0x00, 0x00, 0x00, 0x01, 0x00, 0x00, 0x00,
  0x1a, 0x00, 0x00, 0x00, 0x13, 0x00, 0x00, 0x00, 0x74, 0x66, 0x6c, 0x2e,
  0x66, 0x75, 0x6c, 0x6c, 0x79, 0x5f, 0x63, 0x6f, 0x6e, 0x6e, 0x65, 0x63,
  0x74, 0x65, 0x64, 0x00, 0x02, 0x00, 0x00, 0x00, 0xff, 0xff, 0xff, 0xff,
  0x1a, 0x00, 0x00, 0x00, 0x54, 0xf3, 0xff, 0xff, 0x22, 0xf4, 0xff, 0xff,
  0x04, 0x00, 0x00, 0x00, 0x88, 0x00, 0x00, 0x00, 0xd8, 0xa3, 0x81, 0x3e,
  0x35, 0xf2, 0x05, 0xbf, 0x09, 0xd1, 0x09, 0x3f, 0xa9, 0x05, 0x9a, 0xbd,
  0xc1, 0x39, 0x86, 0x3d, 0xb7, 0xe9, 0xd8, 0xbe, 0xb5, 0xee, 0xb7, 0xbb,
  0x25, 0x08, 0x5e, 0x3c, 0xde, 0x36, 0xc9, 0x3e, 0xb0, 0xdd, 0xcb, 0x3d,
  0x1b, 0xb3, 0x95, 0xbe, 0x85, 0x5b, 0x38, 0xbd, 0x2a, 0x3e, 0xfd, 0xbe,
  0xb9, 0xbc, 0xc2, 0xbe, 0xce, 0x15, 0x0c, 0xbe, 0x27, 0x9f, 0xa1, 0x3d,
  0x28, 0xab, 0xca, 0x3e, 0xb2, 0x8a, 0x57, 0xbd, 0x79, 0xca, 0x11, 0xbf,
  0x90, 0x92, 0xb4, 0x3d, 0x1a, 0xd3, 0x3a, 0x3d, 0xda, 0xa6, 0xc2, 0xbc,
  0xde, 0x14, 0x82, 0x3e, 0x71, 0x95, 0x8a, 0xbe, 0x5e, 0xf7, 0x08, 0x3e,
  0x34, 0x43, 0x59, 0x3e, 0x50, 0x36, 0x5e, 0x3e, 0x82, 0xae, 0x4e, 0x3d,
  0xff, 0x0a, 0x2b, 0xbe, 0x20, 0xd5, 0x8d, 0xbc, 0x1d, 0x17, 0x91, 0xbe,
  0xb1, 0xae, 0xc6, 0x3e, 0x70, 0xff, 0x3b, 0x3e, 0x61, 0x96, 0xac, 0xbe,
  0x9a, 0xf4, 0xff, 0xff, 0x10, 0x00, 0x00, 0x00, 0x07, 0x00, 0x00, 0x00,
  0x14, 0x00, 0x00, 0x00, 0x24, 0x00, 0x00, 0x00, 0x02, 0x00, 0x00, 0x00,
  0x02, 0x00, 0x00, 0x00, 0x11, 0x00, 0x00, 0x00, 0x0d, 0x00, 0x00, 0x00,
  0x73, 0x74, 0x64, 0x2e, 0x63, 0x6f, 0x6e, 0x73, 0x74, 0x61, 0x6e, 0x74,
  0x32, 0x00, 0x00, 0x00, 0x20, 0xf4, 0xff, 0xff, 0xee, 0xf4, 0xff, 0xff,
  0x04, 0x00, 0x00, 0x00, 0xe8, 0x06, 0x00, 0x00, 0xc6, 0xfb, 0xe9, 0xbd,
  0x44, 0x76, 0xcf, 0x3d, 0x7e, 0x7b, 0xb3, 0x3e, 0x8a, 0xce, 0x1d, 0xbe,
  0xec, 0x2f, 0xb1, 0x3d, 0x32, 0x90, 0x85, 0x3e, 0x76, 0x21, 0x90, 0xbd,
  0x40, 0xc5, 0x93, 0xbe, 0x05, 0x74, 0x0a, 0xbe, 0x62, 0x81, 0x38, 0xbe,
  0x12, 0xe2, 0x04, 0xbe, 0xc1, 0xa0, 0x8e, 0xbd, 0x80, 0xfe, 0x61, 0xbb,
  0xa0, 0xe0, 0xb9, 0xbe, 0xe6, 0x84, 0xf8, 0x3c, 0xf1, 0xfb, 0xdf, 0x3d,
  0x2a, 0x2e, 0xb7, 0xbd, 0x28, 0xa9, 0x98, 0xbe, 0x70, 0x43, 0x46, 0x3d,
  0xc0, 0xc0, 0x03, 0xbc, 0x5a, 0x57, 0x52, 0xbe, 0x60, 0x02, 0x7b, 0x3d,
  0x18, 0x45, 0xfa, 0xbd, 0x9b, 0xe8, 0x32, 0x3d, 0x43, 0xac, 0x2b, 0x3e,
  0xb9, 0x28, 0xf4, 0x3d, 0x29, 0xda, 0x9e, 0x3e, 0x70, 0x6e, 0x5e, 0x3d,
  0xdc, 0x9f, 0xa1, 0xbe, 0xe4, 0x5c, 0x1d, 0x3e, 0xa8, 0x4f, 0x28, 0xbe,
  0x69, 0xe8, 0x6b, 0xbe, 0x69, 0x94, 0x50, 0xbe, 0xc8, 0xce, 0x4b, 0xbe,
  0x48, 0x0f, 0x8f, 0x3e, 0x54, 0x6d, 0x28, 0x3e, 0x09, 0xe1, 0x84, 0xbe,
  0x89, 0x7b, 0xc0, 0x3e, 0xa2, 0x1c, 0x66, 0xbe, 0xf8, 0xc6, 0x2b, 0x3e,
  0xaa, 0x05, 0x8d, 0xbe, 0x10, 0xad, 0x95, 0xbe, 0x8a, 0x2c, 0x19, 0xbe,
  0xdc, 0x28, 0xab, 0x3e, 0x42, 0x26, 0xad, 0xbe, 0x3c, 0x7a, 0xa3, 0x3e,
  0xbe, 0x7e, 0xb3, 0x3e, 0xa1, 0x06, 0x68, 0xbe, 0xa2, 0x57, 0x49, 0xbe,
  0xf4, 0xe8, 0x97, 0xbe, 0x7a, 0x2d, 0x90, 0xbe, 0xfa, 0xcd, 0x75, 0xbe,
  0x2f, 0xbf, 0x00, 0xbe, 0x7b, 0x37, 0x4a, 0xbe, 0x03, 0x26, 0x53, 0xbe,
  0x50, 0x10, 0xc6, 0xbd, 0xa8, 0x12, 0x42, 0x3e, 0xe0, 0xdf, 0x72, 0x3d,
  0xe0, 0x77, 0xe1, 0xbd, 0xb7, 0x80, 0xb7, 0xbe, 0xe7, 0xd6, 0x14, 0xbe,
  0x96, 0x12, 0x9f, 0xbe, 0x8e, 0x91, 0xa9, 0x3e, 0x8f, 0x6d, 0x9b, 0xbe,
  0x07, 0xcd, 0x1c, 0xbe, 0xf7, 0x8f, 0x32, 0xbe, 0x08, 0x62, 0x73, 0x3e,
  0x28, 0x0f, 0x3f, 0xbd, 0x02, 0x77, 0x9a, 0xbe, 0x66, 0xaf, 0xa1, 0x3e,
  0x8c, 0x8a, 0x19, 0x3e, 0xf8, 0x32, 0x34, 0x3d, 0xb8, 0x6c, 0x4f, 0x3d,
  0x6c, 0x2b, 0xf5, 0x3d, 0x1c, 0xf9, 0xe6, 0x3d, 0xf4, 0x1e, 0x93, 0x3e,
  0x9a, 0xf0, 0x41, 0xbe, 0x1c, 0xf5, 0x0a, 0x3e, 0x83, 0x75, 0x8e, 0x3c,
  0x85, 0x2a, 0xc7, 0xbe, 0x5d, 0xce, 0x4b, 0xbe, 0x46, 0x72, 0xa9, 0x3e,
  0x18, 0x00, 0x97, 0x3e, 0x76, 0xd1, 0x0b, 0x3e, 0x59, 0x17, 0x21, 0x3e,
  0x03, 0xdd, 0x5e, 0xbe, 0x35, 0xdd, 0x94, 0xbe, 0xb8, 0xe9, 0x41, 0x3e,
  0xa4, 0x16, 0xbc, 0xbe, 0xc7, 0x8c, 0xdb, 0xbe, 0xda, 0xc5, 0xa4, 0x3d,
  0xff, 0x12, 0x0a, 0x3e, 0xea, 0x65, 0x96, 0x3e, 0x4f, 0x08, 0xd3, 0xbe,
  0x21, 0xf9, 0xcd, 0xbe, 0x30, 0x66, 0xaa, 0x3e, 0x10, 0x47, 0xe8, 0x3d,
  0x40, 0xb4, 0xac, 0xbd, 0xe8, 0x08, 0x2e, 0x3e, 0x12, 0x90, 0xba, 0xbe,
  0x66, 0x17, 0xbf, 0x3e, 0x23, 0xc4, 0x8c, 0xbd, 0x81, 0xb6, 0x65, 0x3d,
  0x5a, 0x1d, 0xfb, 0x3c, 0xb8, 0x7b, 0xef, 0x3d, 0x19, 0xb6, 0xc0, 0x3e,
  0xec, 0xbb, 0xda, 0xbd, 0xc8, 0x75, 0xc4, 0xbd, 0xc0, 0x44, 0xa5, 0x3e,
  0x5f, 0x7b, 0xc7, 0xbe, 0xb2, 0xaf, 0x52, 0xbc, 0xd9, 0xe2, 0x87, 0x3e,
  0xb8, 0xf5, 0x65, 0x3e, 0xe7, 0xdc, 0x8e, 0xbe, 0x2e, 0x01, 0x5f, 0x3e,
  0x30, 0x3e, 0x9c, 0x3e, 0x17, 0x93, 0x86, 0x3e, 0x1a, 0x8d, 0xbe, 0xbd,
  0x3c, 0xe0, 0xc2, 0x3d, 0x17, 0xad, 0x97, 0x39, 0x68, 0xa3, 0x42, 0x3e,
  0xc4, 0x17, 0x28, 0xbb, 0xb4, 0xff, 0x7d, 0x3e, 0x40, 0xc5, 0xb5, 0x3c,
  0xbc, 0x2a, 0x34, 0xbe, 0x40, 0x68, 0x74, 0x3c, 0xe0, 0x1c, 0xbc, 0xbc,
  0x35, 0x1f, 0x4f, 0x3e, 0x3b, 0xf2, 0x0a, 0xbe, 0x7a, 0xd7, 0x1f, 0xbe,
  0xc2, 0x4a, 0x65, 0x3e, 0x99, 0xb8, 0xb7, 0xbe, 0x40, 0xfc, 0xa5, 0xbc,
  0xf3, 0x06, 0xb5, 0xbe, 0x04, 0x33, 0x57, 0xbe, 0xdc, 0xc1, 0x78, 0xbe,
  0x8d, 0x79, 0x89, 0xbe, 0x70, 0xd7, 0x15, 0xbd, 0xd4, 0x6c, 0x6f, 0x3e,
  0xd4, 0x1e, 0xa2, 0xbe, 0x05, 0x13, 0x3d, 0xbe, 0xa6, 0x41, 0x1c, 0x3e,
  0x52, 0x87, 0x8a, 0xbe, 0xf4, 0xeb, 0xb1, 0x3e, 0x68, 0xcd, 0xfc, 0x3d,
  0xaf, 0xf9, 0x1c, 0xbe, 0x24, 0x8f, 0x9c, 0x3e, 0xf0, 0xc2, 0xf1, 0xbc,
  0x96, 0x43, 0x28, 0xbe, 0x40, 0x06, 0x0a, 0xbd, 0x48, 0xe1, 0x31, 0xbd,
  0x60, 0xe0, 0x22, 0x3e, 0x5c, 0x69, 0x94, 0x3d, 0x2f, 0xea, 0xa3, 0xbd,
  0x58, 0x0c, 0x26, 0x3e, 0xf0, 0xa9, 0x7d, 0xbd, 0xca, 0x20, 0xd0, 0xbe,
  0x84, 0x0d, 0x43, 0x3e, 0xc4, 0x21, 0x0b, 0x3e, 0xfc, 0xd6, 0xa6, 0x3d,
  0xa7, 0x36, 0x40, 0xbe, 0xb6, 0xeb, 0x32, 0x3d, 0x00, 0xcf, 0xb9, 0x3d,
  0x99, 0x2d, 0x2c, 0x3e, 0x42, 0xd1, 0x07, 0xbe, 0x80, 0x64, 0x11, 0xbe,
  0xe0, 0x13, 0xa2, 0xbd, 0x1b, 0x62, 0x07, 0xbe, 0xcf, 0x81, 0x4f, 0xbe,
  0x78, 0x3a, 0x23, 0x3e, 0x60, 0x44, 0xec, 0x3c, 0x2e, 0xbb, 0xc9, 0xbe,
  0x04, 0xb2, 0x5c, 0xbe, 0x04, 0x1a, 0xb9, 0x3e, 0xa0, 0x91, 0x5f, 0x3c,
  0xfb, 0x98, 0x79, 0xbe, 0x9d, 0x25, 0x25, 0x3e, 0x92, 0xf9, 0xb6, 0xbe,
  0x74, 0x98, 0xb5, 0x3e, 0x78, 0xca, 0x90, 0xbe, 0xa0, 0x80, 0x12, 0x3d,
  0x39, 0x90, 0xbb, 0xbe, 0x3f, 0x1f, 0xa1, 0xba, 0xbe, 0xc2, 0xd2, 0xbe,
  0x48, 0xe5, 0xd4, 0x3d, 0xe2, 0x71, 0x00, 0xbe, 0x90, 0x18, 0xb7, 0x3e,
  0x25, 0xa6, 0x72, 0x3e, 0xe9, 0x68, 0x3d, 0xbf, 0xfb, 0xce, 0xb3, 0x3d,
  0x65, 0x9c, 0x4c, 0xbe, 0x80, 0x79, 0x66, 0x3d, 0x1d, 0x19, 0x0e, 0x3d,
  0x09, 0xcb, 0xfc, 0x3d, 0x3f, 0x44, 0xef, 0xbe, 0xc9, 0x9d, 0x2e, 0x3d,
  0x20, 0x26, 0x23, 0xbe, 0x52, 0x3b, 0x2f, 0xbc, 0x21, 0x2e, 0xa4, 0x3d,
  0x0c, 0x81, 0xa7, 0xbe, 0x2a, 0x6e, 0x83, 0xbe, 0x3c, 0xb9, 0x1c, 0x3e,
  0x20, 0xa1, 0xef, 0xbe, 0xf4, 0xd2, 0xad, 0xbd, 0xe7, 0x5a, 0x51, 0xbe,
  0x77, 0x3d, 0x1d, 0xbe, 0xf2, 0x5c, 0x00, 0x3e, 0x58, 0xe3, 0xd8, 0x3d,
  0x70, 0x0c, 0x5b, 0x3e, 0xb2, 0xe0, 0x8a, 0x3d, 0x44, 0xa0, 0x75, 0xbe,
  0x20, 0x74, 0xb7, 0x3c, 0xe0, 0xd6, 0xc0, 0x3d, 0xc9, 0x39, 0xbc, 0xbe,
  0xe9, 0x33, 0xac, 0x3e, 0x65, 0x09, 0x92, 0x3e, 0x89, 0x5e, 0x37, 0xbe,
  0x7a, 0x1c, 0x9b, 0x3e, 0x04, 0x55, 0x60, 0x3e, 0x50, 0x2b, 0xc9, 0xbd,
  0x0b, 0xe9, 0x1a, 0xbf, 0x2a, 0xb6, 0xdb, 0xbd, 0x28, 0xde, 0x3a, 0x3d,
  0x8c, 0x44, 0x0f, 0xbc, 0x12, 0xad, 0xb5, 0xbf, 0xc4, 0x53, 0x47, 0xbe,
  0x8a, 0x85, 0x90, 0xbe, 0xd4, 0x99, 0x58, 0x3e, 0xfe, 0xef, 0x0b, 0xbf,
  0xc8, 0x79, 0xdb, 0xbd, 0xc6, 0x61, 0x86, 0x3e, 0x0e, 0xa2, 0x75, 0xbe,
  0x32, 0xa4, 0xad, 0xbe, 0x1f, 0xef, 0x86, 0x3d, 0xc0, 0xda, 0x17, 0x3c,
  0x94, 0x83, 0x85, 0x3d, 0xe8, 0x56, 0xb6, 0xbe, 0xa6, 0xf2, 0xb2, 0xbe,
  0xc1, 0xff, 0xaf, 0xbe, 0x40, 0x45, 0xbd, 0xbe, 0x08, 0x8f, 0x3a, 0x3e,
  0x8c, 0x58, 0x31, 0xbe, 0x1c, 0x4b, 0x73, 0x3e, 0x70, 0xe9, 0x87, 0x3e,
  0x26, 0x2a, 0xaa, 0x3e, 0x44, 0xd4, 0xae, 0x3e, 0xb9, 0x2a, 0x80, 0xbe,
  0x78, 0x81, 0x55, 0x3e, 0x88, 0x6c, 0xcc, 0x3d, 0xc0, 0x9e, 0xa5, 0x3e,
  0x90, 0x6f, 0x91, 0xbd, 0xf3, 0xf1, 0x16, 0xbe, 0x40, 0xd1, 0x9e, 0x3e,
  0x15, 0x1f, 0x5a, 0xbe, 0xe8, 0xb9, 0x1b, 0x3e, 0x4c, 0x93, 0x42, 0x3e,
  0x22, 0x96, 0xab, 0x3e, 0xd4, 0x39, 0x44, 0x3e, 0x1a, 0x23, 0xbf, 0x3e,
  0x1c, 0x03, 0x5f, 0xbe, 0x54, 0x0f, 0xa5, 0x3d, 0xf6, 0x9e, 0x60, 0xbe,
  0xd4, 0x60, 0x84, 0x3e, 0x79, 0x4a, 0x88, 0xbe, 0xb9, 0x41, 0x1f, 0xbe,
  0x0d, 0x42, 0x37, 0x3e, 0x9b, 0x86, 0x36, 0xbe, 0xe0, 0xf8, 0x02, 0xbe,
  0xbd, 0x0a, 0x1c, 0xbe, 0x94, 0x57, 0xa1, 0x3e, 0xed, 0xe9, 0x99, 0xbe,
  0xce, 0xf9, 0x0d, 0xbe, 0x89, 0xb2, 0xf4, 0xbc, 0x73, 0xad, 0x22, 0x3e,
  0x67, 0x99, 0x87, 0x3e, 0x30, 0xab, 0xaa, 0x3e, 0x37, 0x37, 0x72, 0x3e,
  0x05, 0x82, 0x0d, 0x3d, 0x1e, 0xa1, 0x9b, 0x3e, 0x90, 0xae, 0xb4, 0xbd,
  0x08, 0x8d, 0x3d, 0xbd, 0x08, 0x0f, 0x0d, 0x3e, 0xa3, 0x4a, 0x82, 0xbe,
  0x67, 0x3a, 0xae, 0xbd, 0x8e, 0xcd, 0x45, 0xbd, 0xaf, 0x8b, 0x33, 0x3d,
  0x13, 0x98, 0x44, 0xbf, 0x55, 0x08, 0x81, 0x3f, 0x48, 0x55, 0x39, 0x3e,
  0xc0, 0xe1, 0x6d, 0x3e, 0xd0, 0xef, 0x9a, 0x3e, 0x82, 0xac, 0x82, 0xbf,
  0x55, 0x33, 0x9c, 0xbe, 0x5c, 0x8c, 0x8a, 0x3e, 0x1c, 0x5a, 0x1e, 0x3e,
  0xa4, 0xd2, 0x35, 0x3e, 0x43, 0x65, 0x74, 0x3e, 0x75, 0x92, 0xb2, 0xbe,
  0x3d, 0xe6, 0x91, 0xbd, 0xaf, 0x91, 0xb9, 0xbd, 0x8b, 0x4f, 0x88, 0xbd,
  0xf9, 0x27, 0x7c, 0xbc, 0x2e, 0xe3, 0x6d, 0x3e, 0xe8, 0x84, 0xcd, 0x3d,
  0x14, 0xae, 0x16, 0x3e, 0xb0, 0x5b, 0x6d, 0xbd, 0xad, 0x97, 0x32, 0x3e,
  0x7b, 0x19, 0x1e, 0xbe, 0xe4, 0xee, 0x4e, 0x3e, 0x58, 0xd8, 0x32, 0x3e,
  0xdb, 0xa3, 0x5a, 0x3e, 0x53, 0x52, 0x4f, 0xbe, 0xe3, 0x14, 0x83, 0xbe,
  0xd0, 0xe1, 0x1b, 0x3e, 0xd8, 0x88, 0x19, 0x3e, 0x00, 0x5d, 0xf3, 0x3b,
  0x14, 0xe8, 0x8f, 0xbe, 0x10, 0xf0, 0xd1, 0xbd, 0x0a, 0xed, 0x5b, 0xbe,
  0x38, 0xe0, 0x88, 0xbd, 0xf4, 0x1a, 0x1e, 0xbe, 0x53, 0xbc, 0x8a, 0xbe,
  0x30, 0xae, 0x2c, 0x3d, 0x38, 0x65, 0x42, 0x3e, 0x60, 0xd7, 0x29, 0xbc,
  0x42, 0x41, 0x95, 0x3e, 0x24, 0xd7, 0x87, 0xbd, 0xaf, 0x8f, 0xaa, 0xbe,
  0x20, 0x45, 0x9c, 0xbe, 0x60, 0xbf, 0x97, 0xbe, 0x46, 0x1d, 0x30, 0xbe,
  0xad, 0x36, 0x92, 0xbe, 0x0a, 0x00, 0xaf, 0xbe, 0x73, 0xb0, 0x28, 0xbe,
  0x80, 0x00, 0x94, 0xbe, 0x58, 0x4b, 0xf4, 0xbd, 0x10, 0x44, 0xad, 0x3c,
  0xf0, 0xc7, 0x46, 0xbd, 0xbc, 0x66, 0x2a, 0xbc, 0x9e, 0x5e, 0x33, 0xbd,
  0xa5, 0xc7, 0x46, 0xbe, 0x98, 0x1e, 0xeb, 0x3d, 0x89, 0xc6, 0x24, 0xbe,
  0x35, 0xbc, 0x92, 0x3e, 0x14, 0xc3, 0x7c, 0xbb, 0x1c, 0x34, 0xb0, 0xbe,
  0xfc, 0x31, 0x09, 0x3e, 0x14, 0x22, 0x1d, 0x3e, 0xa7, 0x1f, 0x8e, 0xbe,
  0x4d, 0xbb, 0x4f, 0xbd, 0xdf, 0x34, 0x74, 0xbe, 0xa2, 0x88, 0x04, 0x3e,
  0xc8, 0xde, 0x6c, 0x3e, 0xe4, 0x9e, 0x97, 0xbe, 0x0c, 0xd6, 0x9c, 0x3e,
  0x44, 0x6a, 0x7d, 0x3e, 0x0c, 0x76, 0xf3, 0xbd, 0x98, 0xee, 0x95, 0xbd,
  0xf9, 0x9a, 0xaa, 0xbe, 0xc4, 0x8b, 0x8b, 0x3e, 0x3f, 0x8c, 0x89, 0xbe,
  0xfc, 0x03, 0x23, 0x3e, 0xd2, 0x4e, 0x87, 0xbe, 0x4b, 0xec, 0xf9, 0x3d,
  0xd9, 0xf7, 0x59, 0xbd, 0x87, 0xd2, 0x61, 0xbe, 0x80, 0x2e, 0xb6, 0xbb,
  0x80, 0xc2, 0xe4, 0x3c, 0x10, 0xd6, 0x8e, 0x3e, 0x37, 0xba, 0xab, 0xbe,
  0x2e, 0xfb, 0x09, 0x3e, 0xdb, 0x3d, 0x41, 0xbe, 0xf0, 0x42, 0x34, 0x3e,
  0xc0, 0x28, 0x43, 0xbc, 0xc0, 0x8f, 0x0b, 0x3e, 0x89, 0x12, 0xae, 0xbe,
  0xb6, 0x05, 0x85, 0x3e, 0x6d, 0x8a, 0xce, 0xbe, 0xcf, 0x80, 0x13, 0xbe,
  0x08, 0x9d, 0xb5, 0xbe, 0x7b, 0x87, 0x5f, 0x3e, 0x68, 0x2d, 0x24, 0x3e,
  0xda, 0xcd, 0x2f, 0xbe, 0x98, 0xc7, 0x6b, 0xbe, 0x0a, 0x36, 0x97, 0x3e,
  0x98, 0x22, 0x52, 0xbd, 0x70, 0xdc, 0x0b, 0xbd, 0xb0, 0xed, 0x2f, 0xbd,
  0xd4, 0x85, 0xa6, 0x3d, 0x85, 0x4d, 0xa7, 0xbe, 0x57, 0xc9, 0x88, 0x3d,
  0x00, 0x07, 0x87, 0xbf, 0x19, 0x4b, 0xad, 0xbe, 0xce, 0x4d, 0xbb, 0x3e,
  0x7f, 0xa8, 0xad, 0xbe, 0x63, 0x74, 0x84, 0x3f, 0x98, 0x3f, 0x7a, 0xbf,
  0x32, 0xc0, 0x1b, 0x3d, 0x84, 0x05, 0x88, 0xbd, 0xf0, 0xe2, 0x06, 0x3e,
  0x3c, 0xac, 0x53, 0xbe, 0x3b, 0x0b, 0xf6, 0xbd, 0x98, 0x56, 0xb3, 0xbd,
  0x11, 0x8e, 0xf9, 0x3c, 0x0b, 0x6a, 0x39, 0xbe, 0xc6, 0x88, 0xea, 0x3e,
  0x5b, 0x2b, 0x2a, 0xbf, 0x57, 0x20, 0xbc, 0x3e, 0x78, 0xf1, 0x41, 0x3e,
  0x0c, 0x58, 0x9d, 0x3e, 0xcc, 0x84, 0x6a, 0xbe, 0xc8, 0x0f, 0x60, 0xbe,
  0xb8, 0x67, 0x69, 0x3e, 0x13, 0x03, 0x95, 0xbe, 0x2e, 0xf4, 0xb7, 0x3e,
  0xc2, 0x73, 0x54, 0x3e, 0xae, 0x27, 0x7d, 0x3d, 0xa8, 0xb7, 0xe7, 0x3c,
  0xb2, 0x38, 0xa8, 0x3e, 0xde, 0x9f, 0x9d, 0xbe, 0x30, 0x74, 0xaf, 0xbc,
  0x91, 0xa2, 0x50, 0x3e, 0xff, 0x95, 0xa0, 0x3e, 0x87, 0x2c, 0x6c, 0x3e,
  0x40, 0x07, 0x79, 0x3e, 0xc0, 0x90, 0x46, 0xbd, 0x96, 0x59, 0x0a, 0x3e,
  0x3b, 0x96, 0xf6, 0xbd, 0x4c, 0xb9, 0x2d, 0x3e, 0x72, 0xfb, 0x27, 0xbe,
  0x06, 0xf7, 0xf3, 0xbb, 0xdf, 0x21, 0x19, 0xbd, 0xff, 0xe5, 0xc5, 0xbe,
  0xce, 0x0b, 0x75, 0x3c, 0x98, 0xa7, 0xb4, 0x3e, 0x6a, 0xb6, 0xa5, 0x3e,
  0xb7, 0xbf, 0xed, 0xbc, 0x18, 0x16, 0xbc, 0xbe, 0x08, 0x49, 0x2d, 0x3d,
  0xcd, 0x7e, 0x80, 0x3e, 0x03, 0x51, 0xa8, 0x3e, 0x31, 0x5d, 0xe0, 0xbe,
  0xc6, 0xfb, 0xff, 0xff, 0x10, 0x00, 0x00, 0x00, 0x06, 0x00, 0x00, 0x00,
  0x14, 0x00, 0x00, 0x00, 0x24, 0x00, 0x00, 0x00, 0x02, 0x00, 0x00, 0x00,
  0x11, 0x00, 0x00, 0x00, 0x1a, 0x00, 0x00, 0x00, 0x0d, 0x00, 0x00, 0x00,
  0x73, 0x74, 0x64, 0x2e, 0x63, 0x6f, 0x6e, 0x73, 0x74, 0x61, 0x6e, 0x74,
  0x31, 0x00, 0x00, 0x00, 0x4c, 0xfb, 0xff, 0xff, 0x1a, 0xfc, 0xff, 0xff,
  0x04, 0x00, 0x00, 0x00, 0x70, 0x02, 0x00, 0x00, 0x3f, 0x17, 0x02, 0x41,
  0xd6, 0x1a, 0xcd, 0x3e, 0xbc, 0xe1, 0xbf, 0xbe, 0x3d, 0x12, 0x97, 0x40,
  0x64, 0x48, 0xae, 0xbe, 0x0f, 0x8d, 0xb1, 0x3e, 0x9e, 0x8d, 0x81, 0x3f,
  0x5d, 0x05, 0x2f, 0xbf, 0x05, 0x9c, 0x49, 0x3e, 0xe6, 0x13, 0x86, 0x40,
  0xe7, 0x0e, 0xc2, 0x3c, 0xc7, 0x26, 0x22, 0x3e, 0xf0, 0xc3, 0xd0, 0x3c,
  0xd2, 0x46, 0x0f, 0x3e, 0x9a, 0x88, 0x45, 0xbe, 0x30, 0x91, 0x34, 0x3d,
  0x62, 0xdd, 0x6a, 0x3e, 0x2a, 0xc9, 0xa9, 0xbe, 0xd3, 0x38, 0xcb, 0x3e,
  0xc4, 0x7d, 0x82, 0xbe, 0x61, 0xaf, 0xaa, 0xbe, 0xec, 0xd7, 0xc2, 0x3d,
  0x1e, 0xb2, 0xae, 0xbe, 0x94, 0x1c, 0xc7, 0x3d, 0xca, 0x35, 0x45, 0x3e,
  0x20, 0x43, 0x7f, 0x3d, 0xf4, 0xce, 0x9d, 0x3d, 0xc0, 0x49, 0x99, 0x3c,
  0x00, 0xf6, 0x75, 0xbe, 0xca, 0x17, 0x91, 0xbe, 0x4b, 0xac, 0x12, 0x40,
  0x20, 0x39, 0xa5, 0xbe, 0xe7, 0x05, 0xb9, 0x3e, 0xf6, 0x57, 0x01, 0x41,
  0xdc, 0xed, 0xcc, 0xbe, 0x80, 0x59, 0x86, 0x3e, 0xb5, 0x57, 0x40, 0xc0,
  0x60, 0x8e, 0x8c, 0x3e, 0xa3, 0x8e, 0x10, 0xbf, 0x8f, 0xff, 0x21, 0x40,
  0x93, 0x56, 0x58, 0xbe, 0x72, 0x12, 0xc6, 0x3e, 0x80, 0x4b, 0x4b, 0xc1,
  0x66, 0xdb, 0x8b, 0x3d, 0x03, 0xb3, 0x62, 0x3d, 0xc9, 0x9a, 0x0d, 0xc1,
  0x8d, 0xd4, 0x88, 0xbc, 0x0b, 0xf9, 0x48, 0x3e, 0xf2, 0xd7, 0x3f, 0x3e,
  0x90, 0x17, 0x71, 0xbd, 0x04, 0xdd, 0xb1, 0xbd, 0x23, 0xaf, 0xa5, 0xbe,
  0xf8, 0xb9, 0xae, 0xbe, 0x4c, 0xa3, 0xdc, 0x3d, 0x4b, 0x68, 0xc6, 0xbe,
  0xb8, 0x11, 0x03, 0xbe, 0x0a, 0xb9, 0x95, 0xbe, 0xb0, 0x79, 0x80, 0xbc,
  0xa0, 0xc7, 0x9b, 0xbc, 0x6c, 0x48, 0x02, 0xbe, 0xc5, 0xfc, 0xdf, 0xbe,
  0x8d, 0x41, 0xdf, 0xbd, 0xae, 0x44, 0x87, 0xbc, 0x2b, 0x66, 0xda, 0x3d,
  0x2c, 0xc6, 0xe1, 0xbe, 0x03, 0xfd, 0xa2, 0x3e, 0xc9, 0x63, 0x11, 0x41,
  0x88, 0xd6, 0xdb, 0x3e, 0xb6, 0x75, 0x9a, 0xbe, 0x2b, 0x29, 0x15, 0x41,
  0xbf, 0xec, 0xaa, 0x3e, 0x9f, 0xf8, 0xb0, 0xbe, 0xca, 0x80, 0x13, 0x41,
  0x21, 0x7b, 0xba, 0xbe, 0xa6, 0x07, 0x04, 0xbe, 0xd8, 0xb9, 0xa3, 0x3f,
  0x1a, 0x41, 0xb6, 0x3e, 0x35, 0xd4, 0x8b, 0xbb, 0x4c, 0x8b, 0xe8, 0xbf,
  0x10, 0x30, 0xa8, 0x3c, 0x96, 0x19, 0xbc, 0xbe, 0xca, 0x98, 0x5b, 0xbf,
  0x85, 0x57, 0x18, 0xbe, 0x6e, 0x93, 0x2a, 0x3e, 0x95, 0xd7, 0x2b, 0xbe,
  0x0e, 0x29, 0x25, 0x3c, 0xb1, 0x48, 0x27, 0xbe, 0xdf, 0x74, 0x13, 0x3e,
  0xfc, 0x85, 0xb0, 0xbe, 0xf5, 0x36, 0x8e, 0x3e, 0x86, 0x48, 0xe0, 0xbd,
  0x41, 0x88, 0xa3, 0xbd, 0x1c, 0xfd, 0xfb, 0x3d, 0xe4, 0xb0, 0xb5, 0x3f,
  0x75, 0xa5, 0xa7, 0xbe, 0x59, 0x50, 0x43, 0x3e, 0xca, 0xf1, 0x49, 0xbf,
  0xec, 0xb1, 0x05, 0xbf, 0xa7, 0x21, 0xb8, 0xbe, 0x67, 0xb1, 0x83, 0xbd,
  0x68, 0xff, 0x86, 0x3e, 0x9c, 0x9c, 0xf1, 0x3d, 0x01, 0xee, 0x51, 0xbe,
  0x49, 0xf5, 0xbd, 0x3e, 0x79, 0xe5, 0x95, 0xbe, 0xec, 0x38, 0x5c, 0x3e,
  0xe4, 0xa9, 0x0c, 0xbe, 0x9d, 0x30, 0x34, 0x3d, 0x02, 0xd1, 0x31, 0x3e,
  0x46, 0x01, 0x50, 0x3e, 0x66, 0x37, 0x8f, 0xbe, 0xd1, 0xfb, 0xd0, 0x3e,
  0x90, 0xce, 0xc8, 0xbe, 0xbc, 0x29, 0xc5, 0x3d, 0x30, 0x36, 0x1f, 0xbe,
  0xca, 0x6a, 0x10, 0x3e, 0x08, 0x0d, 0xe9, 0xbd, 0x80, 0xfc, 0x88, 0xbd,
  0x00, 0xa2, 0x8b, 0xbb, 0xc4, 0xda, 0x1b, 0xbe, 0x1b, 0x6d, 0xd6, 0x40,
  0x37, 0xc5, 0x44, 0x3e, 0x17, 0x2b, 0x51, 0x3e, 0xed, 0x54, 0xc7, 0x40,
  0xb3, 0x1e, 0x67, 0x3e, 0x8f, 0x74, 0xd0, 0xbe, 0x66, 0xa3, 0x65, 0x3e,
  0x45, 0xe7, 0x69, 0xbe, 0xfa, 0xd3, 0x18, 0x3e, 0x6c, 0x19, 0x01, 0xbe,
  0x18, 0x4e, 0x58, 0x3d, 0xb8, 0x22, 0x80, 0xbd, 0xd2, 0x46, 0x6c, 0x3e,
  0xd8, 0xf0, 0xb9, 0xbe, 0xb8, 0x4c, 0x70, 0x3d, 0x26, 0xfb, 0x4a, 0xbe,
  0x02, 0xbf, 0x13, 0x3e, 0x88, 0xe0, 0xae, 0xbe, 0xf1, 0x2c, 0x76, 0xbe,
  0xe4, 0x16, 0xb6, 0xbe, 0xac, 0xd4, 0x3e, 0x3e, 0xcf, 0x90, 0x59, 0x3e,
  0x1f, 0xc0, 0xe2, 0xbe, 0x66, 0x5d, 0xb3, 0x3e, 0x65, 0x8a, 0xdc, 0xbe,
  0xc9, 0xa6, 0x03, 0x3d, 0x41, 0xf3, 0x4c, 0x3d, 0x28, 0xb5, 0x32, 0x3d,
  0xcd, 0x17, 0xa9, 0xbe, 0x96, 0x3b, 0x30, 0x3e, 0xef, 0xbe, 0x3e, 0x41,
  0x66, 0x64, 0xab, 0xbe, 0x8e, 0xf6, 0x95, 0x3e, 0xa6, 0x7d, 0xfc, 0x40,
  0xa9, 0x57, 0x3a, 0x3a, 0x59, 0x4b, 0x86, 0x3e, 0x7a, 0xfe, 0xff, 0xff,
  0x10, 0x00, 0x00, 0x00, 0x05, 0x00, 0x00, 0x00, 0x14, 0x00, 0x00, 0x00,
  0x24, 0x00, 0x00, 0x00, 0x02, 0x00, 0x00, 0x00, 0x1a, 0x00, 0x00, 0x00,
  0x06, 0x00, 0x00, 0x00, 0x0c, 0x00, 0x00, 0x00, 0x73, 0x74, 0x64, 0x2e,
  0x63, 0x6f, 0x6e, 0x73, 0x74, 0x61, 0x6e, 0x74, 0x00, 0x00, 0x00, 0x00,
  0x00, 0xfe, 0xff, 0xff, 0xce, 0xfe, 0xff, 0xff, 0x04, 0x00, 0x00, 0x00,
  0x68, 0x00, 0x00, 0x00, 0x9d, 0x39, 0xa5, 0x3f, 0x4e, 0x5e, 0x5a, 0x40,
  0x00, 0x00, 0x00, 0x00, 0x00, 0x00, 0x00, 0x00, 0x00, 0x00, 0x00, 0x00,
  0xa2, 0xa8, 0xd4, 0x3f, 0x22, 0x77, 0x4e, 0x40, 0x85, 0x5a, 0x22, 0xc0,
  0x00, 0x00, 0x00, 0x00, 0x00, 0x00, 0x00, 0x00, 0x7d, 0x24, 0x4b, 0xbd,
  0xa4, 0x7c, 0x62, 0x40, 0x88, 0x69, 0xeb, 0x3e, 0x0c, 0x98, 0xa1, 0x3d,
  0x71, 0xa6, 0x21, 0xbd, 0x85, 0xe9, 0x19, 0x3e, 0xdc, 0x56, 0x5e, 0xbe,
  0xe0, 0x8d, 0x87, 0xbc, 0x00, 0x00, 0x00, 0x00, 0x00, 0x00, 0x00, 0x00,
  0x57, 0xc1, 0xe8, 0x3f, 0x00, 0x00, 0x00, 0x00, 0x00, 0x00, 0x00, 0x00,
  0xb0, 0xd4, 0x91, 0xbd, 0x09, 0xc3, 0x23, 0xbc, 0xed, 0xf1, 0x05, 0x40,
  0x26, 0xff, 0xff, 0xff, 0x10, 0x00, 0x00, 0x00, 0x04, 0x00, 0x00, 0x00,
  0x10, 0x00, 0x00, 0x00, 0x20, 0x00, 0x00, 0x00, 0x01, 0x00, 0x00, 0x00,
  0x1a, 0x00, 0x00, 0x00, 0x0c, 0x00, 0x00, 0x00, 0x64, 0x65, 0x6e, 0x73,
  0x65, 0x5f, 0x36, 0x2f, 0x62, 0x69, 0x61, 0x73, 0x00, 0x00, 0x00, 0x00,
  0xa8, 0xfe, 0xff, 0xff, 0x76, 0xff, 0xff, 0xff, 0x04, 0x00, 0x00, 0x00,
  0x44, 0x00, 0x00, 0x00, 0xa4, 0x55, 0x43, 0xbd, 0xfd, 0xb3, 0x11, 0xbc,
  0x00, 0x00, 0x00, 0x00, 0xd3, 0xd5, 0x21, 0xbe, 0x44, 0xeb, 0xf8, 0xbf,
  0x7d, 0xda, 0xaf, 0xbb, 0x1f, 0x52, 0xec, 0xbd, 0x2a, 0x5a, 0x02, 0x40,
  0xf6, 0x7b, 0x0d, 0xc0, 0x00, 0x00, 0x00, 0x00, 0x57, 0x5e, 0x0c, 0x3f,
  0x72, 0xe8, 0x2c, 0xc0, 0x00, 0x00, 0x00, 0x00, 0x74, 0x5b, 0x14, 0xbd,
  0xab, 0xf8, 0x8f, 0xbc, 0xce, 0x01, 0x08, 0x40, 0xef, 0xe1, 0x8b, 0xbd,
  0xaa, 0xff, 0xff, 0xff, 0x10, 0x00, 0x00, 0x00, 0x03, 0x00, 0x00, 0x00,
  0x10, 0x00, 0x00, 0x00, 0x24, 0x00, 0x00, 0x00, 0x01, 0x00, 0x00, 0x00,
  0x11, 0x00, 0x00, 0x00, 0x0c, 0x00, 0x00, 0x00, 0x64, 0x65, 0x6e, 0x73,
  0x65, 0x5f, 0x37, 0x2f, 0x62, 0x69, 0x61, 0x73, 0x00, 0x00, 0x00, 0x00,
  0x04, 0x00, 0x06, 0x00, 0x04, 0x00, 0x00, 0x00, 0x00, 0x00, 0x06, 0x00,
  0x08, 0x00, 0x04, 0x00, 0x06, 0x00, 0x00, 0x00, 0x04, 0x00, 0x00, 0x00,
  0x08, 0x00, 0x00, 0x00, 0x70, 0xe3, 0xee, 0xbf, 0x70, 0xe3, 0xee, 0x3f,
  0x00, 0x00, 0x0e, 0x00, 0x14, 0x00, 0x04, 0x00, 0x00, 0x00, 0x08, 0x00,
  0x0c, 0x00, 0x10, 0x00, 0x0e, 0x00, 0x00, 0x00, 0x10, 0x00, 0x00, 0x00,
  0x02, 0x00, 0x00, 0x00, 0x10, 0x00, 0x00, 0x00, 0x20, 0x00, 0x00, 0x00,
  0x01, 0x00, 0x00, 0x00, 0x02, 0x00, 0x00, 0x00, 0x0c, 0x00, 0x00, 0x00,
  0x64, 0x65, 0x6e, 0x73, 0x65, 0x5f, 0x38, 0x2f, 0x62, 0x69, 0x61, 0x73,
  0x00, 0x00, 0x00, 0x00, 0x90, 0xff, 0xff, 0xff, 0x14, 0x00, 0x18, 0x00,
  0x04, 0x00, 0x00, 0x00, 0x08, 0x00, 0x0c, 0x00, 0x10, 0x00, 0x00, 0x00,
  0x00, 0x00, 0x14, 0x00, 0x14, 0x00, 0x00, 0x00, 0x14, 0x00, 0x00, 0x00,
  0x01, 0x00, 0x00, 0x00, 0x18, 0x00, 0x00, 0x00, 0x44, 0x00, 0x00, 0x00,
  0x34, 0x00, 0x00, 0x00, 0x02, 0x00, 0x00, 0x00, 0x01, 0x00, 0x00, 0x00,
  0x06, 0x00, 0x00, 0x00, 0x1f, 0x00, 0x00, 0x00, 0x73, 0x65, 0x72, 0x76,
  0x69, 0x6e, 0x67, 0x5f, 0x64, 0x65, 0x66, 0x61, 0x75, 0x6c, 0x74, 0x5f,
  0x64, 0x65, 0x6e, 0x73, 0x65, 0x5f, 0x36, 0x5f, 0x69, 0x6e, 0x70, 0x75,
  0x74, 0x3a, 0x30, 0x00, 0x02, 0x00, 0x00, 0x00, 0xff, 0xff, 0xff, 0xff,
  0x06, 0x00, 0x00, 0x00, 0xfc, 0xff, 0xff, 0xff, 0x04, 0x00, 0x04, 0x00,
  0x04, 0x00, 0x00, 0x00};
const int g_model_len = 4384;
